#include "sine_model_data.h"

ai_handle ai_sine_model_data_weights_get(void)
{

  AI_ALIGNED(4)
  static const ai_u8 s_sine_model_weights[ 420 ] = {
    0x75, 0x1c, 0x11, 0xe1, 0x0c, 0x81, 0xa5, 0x42, 0xfe, 0xd5,
    0xd4, 0xb2, 0x61, 0x78, 0x19, 0xdf, 0x06, 0x00, 0x00, 0x00,
    0x77, 0x0b, 0x00, 0x00, 0x53, 0xf6, 0xff, 0xff, 0x00, 0x00,
    0x00, 0x00, 0x77, 0x0c, 0x00, 0x00, 0x00, 0x00, 0x00, 0x00,
    0x00, 0x00, 0x00, 0x00, 0xd3, 0x06, 0x00, 0x00, 0x00, 0x00,
    0x00, 0x00, 0x00, 0x00, 0x00, 0x00, 0x72, 0x21, 0x00, 0x00,
    0x00, 0x00, 0x00, 0x00, 0x2f, 0x07, 0x00, 0x00, 0x67, 0xf5,
    0xff, 0xff, 0x34, 0xf0, 0xff, 0xff, 0x00, 0x00, 0x00, 0x00,
    0xee, 0xfc, 0x00, 0xec, 0x05, 0x17, 0xef, 0xec, 0xe6, 0xf8,
    0x03, 0x01, 0x00, 0xfa, 0xf8, 0xf5, 0xdc, 0xeb, 0x27, 0x14,
    0xf1, 0xde, 0xe2, 0xdb, 0xf0, 0xde, 0x31, 0x06, 0x02, 0xe6,
    0xee, 0xf9, 0x00, 0x16, 0x07, 0xe0, 0xfe, 0xff, 0xe9, 0x06,
    0xe7, 0xef, 0x81, 0x1b, 0x18, 0xea, 0xc9, 0x01, 0x0f, 0x00,
    0xda, 0xf7, 0x0e, 0xec, 0x13, 0x1f, 0x04, 0x13, 0xb4, 0xe6,
    0xfd, 0x06, 0xb9, 0xe0, 0x0d, 0xec, 0xf0, 0xde, 0xeb, 0xf7,
    0x05, 0x26, 0x1a, 0xe4, 0x6f, 0x1a, 0xea, 0x1e, 0x35, 0xdf,
    0x1a, 0xf3, 0xf1, 0x19, 0x0f, 0x03, 0x1b, 0xe1, 0xde, 0x13,
    0xf6, 0x19, 0xff, 0xf6, 0x1b, 0x18, 0xf0, 0x1c, 0xda, 0x1b,
    0x1b, 0x20, 0xe5, 0x1a, 0xf5, 0xff, 0x96, 0x0b, 0x00, 0x01,
    0xcd, 0xde, 0x0d, 0xf6, 0x16, 0xe3, 0xed, 0xfc, 0x0e, 0xe9,
    0xfa, 0xeb, 0x5c, 0xfc, 0x1d, 0x02, 0x5b, 0xe2, 0xe1, 0xf5,
    0x15, 0xec, 0xf4, 0x00, 0x13, 0x05, 0xec, 0x0c, 0x1d, 0x14,
    0x0e, 0xe7, 0x0b, 0xf4, 0x19, 0x00, 0xd7, 0x05, 0x27, 0x02,
    0x15, 0xea, 0xea, 0x02, 0x9b, 0x00, 0x0c, 0xfa, 0xe8, 0xea,
    0xfd, 0x00, 0x14, 0xfd, 0x0b, 0x02, 0xef, 0xee, 0x06, 0xee,
    0x01, 0x0d, 0x06, 0xe6, 0xf7, 0x11, 0xf7, 0x09, 0xf8, 0xf1,
    0x21, 0xff, 0x0e, 0xf3, 0xec, 0x12, 0x26, 0x1d, 0xf2, 0xe9,
    0x28, 0x18, 0xe0, 0xfb, 0xf3, 0xf4, 0x05, 0x1d, 0x1d, 0xfb,
    0xfd, 0x1e, 0xfc, 0x11, 0xe8, 0x07, 0x09, 0x03, 0x12, 0xf2,
    0x36, 0xfb, 0xdc, 0x1c, 0xf9, 0xef, 0xf3, 0xe7, 0x6f, 0x0c,
    0x1d, 0x00, 0x45, 0xfd, 0x0e, 0xf0, 0x0b, 0x19, 0x1a, 0xfa,
    0xe0, 0x19, 0x1f, 0x13, 0x36, 0x1c, 0x12, 0xeb, 0x3b, 0x0c,
    0xb4, 0xcb, 0xe6, 0x13, 0xfa, 0xeb, 0xf1, 0x06, 0x1c, 0xfa,
    0x18, 0xe5, 0xeb, 0xcb, 0x0c, 0xf4, 0x00, 0x00, 0x00, 0x00,
    0xb5, 0x04, 0x00, 0x00, 0x78, 0x0a, 0x00, 0x00, 0x2d, 0x06,
    0x00, 0x00, 0x71, 0xf8, 0xff, 0xff, 0x00, 0x00, 0x00, 0x00,
    0x99, 0x0a, 0x00, 0x00, 0xfe, 0xf7, 0xff, 0xff, 0x0f, 0x05,
    0x00, 0x00, 0xd4, 0x09, 0x00, 0x00, 0x47, 0xfe, 0xff, 0xff,
    0xb6, 0x04, 0x00, 0x00, 0x00, 0x00, 0x00, 0x00, 0xac, 0xf7,
    0xff, 0xff, 0x4b, 0xf9, 0xff, 0xff, 0x4a, 0x05, 0x00, 0x00,
    0x21, 0xa5, 0x8b, 0xca, 0x5e, 0x1d, 0xce, 0x42, 0x9d, 0xce,
    0x1f, 0xb0, 0xdf, 0x54, 0x2f, 0x81, 0x8c, 0xef, 0xff, 0xff
  };

  return AI_HANDLE_PTR(s_sine_model_weights);

}

